<unk>	0
<s>	0
</s>	0
s	-3.02497
▁	-3.10789
,	-3.66339
▁de	-3.72345
i	-3.75427
r	-3.80157
a	-3.85411
o	-3.91544
.	-4.00735
u	-4.11997
▁a	-4.15139
▁e	-4.39174
t	-4.57404
e	-4.59222
▁o	-4.68335
▁do	-4.6915
l	-4.74702
c	-4.93481
m	-4.99462
▁da	-5.04354
▁que	-5.07672
to	-5.08422
ra	-5.08519
n	-5.08949
p	-5.2227
do	-5.22573
ta	-5.2339
▁em	-5.26351
▁A	-5.29111
te	-5.29643
"	-5.33072
)	-5.34485
▁"	-5.37314
▁com	-5.38671
-	-5.41236
▁(	-5.42958
▁no	-5.44213
re	-5.53519
ca	-5.55067
la	-5.57229
▁S	-5.57591
d	-5.58424
▁na	-5.62144
co	-5.64783
▁re	-5.66027
á	-5.66919
na	-5.67965
da	-5.68217
ma	-5.68527
▁um	-5.69332
b	-5.70979
er	-5.71483
▁uma	-5.71512
▁é	-5.73305
al	-5.73547
▁fo	-5.75179
is	-5.75832
▁O	-5.76352
f	-5.76996
g	-5.77768
in	-5.79442
an	-5.80979
ce	-5.81056
ar	-5.81307
de	-5.81703
▁se	-5.81792
h	-5.82282
le	-5.82314
▁E	-5.83303
y	-5.84645
ti	-5.84746
di	-5.85603
ro	-5.85865
ão	-5.8627
li	-5.87697
v	-5.87748
í	-5.90643
▁para	-5.915
▁f	-5.92378
A	-5.94994
z	-5.97796
5	-5.99137
2	-5.99212
en	-6.00688
ado	-6.01001
k	-6.03724
▁T	-6.04092
ndo	-6.05898
ou	-6.0698
▁por	-6.07942
▁C	-6.0918
as	-6.09316
▁P	-6.09776
ção	-6.10162
3	-6.10391
:	-6.1125
▁B	-6.11901
es	-6.11986
1	-6.12143
9	-6.12349
os	-6.1536
nte	-6.17128
ó	-6.17725
0	-6.19117
se	-6.20578
ve	-6.20804
8	-6.21082
▁p	-6.2137
ci	-6.21961
ria	-6.22093
6	-6.22801
pe	-6.23369
▁c	-6.23482
▁m	-6.26527
é	-6.27826
lo	-6.27986
va	-6.28232
em	-6.28297
4	-6.28378
7	-6.28415
▁con	-6.29988
▁não	-6.30744
un	-6.32351
on	-6.32756
▁in	-6.3393
I	-6.36658
ga	-6.37076
O	-6.37443
S	-6.37491
pa	-6.38346
go	-6.38679
ções	-6.38783
ram	-6.39475
no	-6.39708
x	-6.42742
E	-6.43012
ni	-6.43037
ada	-6.43188
mo	-6.46746
mento	-6.47694
ia	-6.48354
que	-6.50302
el	-6.50528
gi	-6.50807
▁M	-6.50954
ul	-6.51358
▁como	-6.52074
us	-6.53479
vo	-6.53733
▁F	-6.54374
ne	-6.54761
▁G	-6.58741
R	-6.59648
sta	-6.60001
j	-6.60688
gu	-6.61627
fe	-6.62462
▁H	-6.63575
mi	-6.64006
▁tr	-6.64049
w	-6.64129
ho	-6.64554
C	-6.64744
▁-	-6.65103
▁mais	-6.65195
bo	-6.66471
ch	-6.66668
ação	-6.67588
▁di	-6.68993
du	-6.69403
mente	-6.69591
▁os	-6.70086
me	-6.70179
▁19	-6.7045
▁I	-6.71189
tu	-6.71534
/	-6.71614
▁me	-6.72378
▁L	-6.72615
cia	-6.73756
▁pro	-6.74002
▁pelo	-6.74639
M	-6.7464
ns	-6.74816
▁seu	-6.7579
str	-6.75844
im	-6.76249
▁também	-6.77987
res	-6.78721
ba	-6.7906
D	-6.7939
po	-6.7992
dos	-6.81763
N	-6.8304
▁2	-6.83377
idade	-6.8404
▁sua	-6.84242
▁ca	-6.85702
▁ao	-6.86849
fic	-6.87157
be	-6.88388
▁tem	-6.88981
▁Pa	-6.89286
nd	-6.89291
il	-6.90254
T	-6.90923
um	-6.91015
▁ex	-6.92219
ú	-6.94066
sse	-6.94305
▁vi	-6.94316
▁ele	-6.94334
▁D	-6.94901
▁Referências	-6.95417
▁b	-6.97335
P	-6.97971
▁N	-6.98771
▁Ma	-6.98827
▁No	-6.99105
▁W	-6.99119
▁ser	-6.99646
▁Ca	-6.99789
ng	-7.00852
▁R	-7.01297
▁j	-7.03109
▁1	-7.04251
ça	-7.04453
ência	-7.05426
▁Co	-7.06695
▁Em	-7.06757
qui	-7.09626
▁De	-7.10103
▁pode	-7.1035
▁pre	-7.10622
▁mas	-7.1129
▁ter	-7.11462
ent	-7.11653
▁3	-7.12179
▁ou	-7.12456
das	-7.12527
nde	-7.13192
▁l	-7.13217
!	-7.13241
iz	-7.13516
▁Re	-7.14195
▁so	-7.14961
▁ap	-7.15491
▁habitantes	-7.16547
ista	-7.17297
tal	-7.18051
ver	-7.1825
▁V	-7.18576
▁esta	-7.18796
▁J	-7.19387
▁20	-7.19661
▁:(	-7.1997
▁en	-7.20399
cio	-7.20529
ter	-7.20592
B	-7.2455
L	-7.24595
V	-7.24601
▁cor	-7.25478
G	-7.28514
▁Al	-7.2873
▁entre	-7.29092
ente	-7.29161
▁K	-7.29324
min	-7.29885
tor	-7.3077
▁Localidade	-7.30987
nha	-7.3158
ê	-7.31912
ssa	-7.32637
▁pela	-7.33029
▁qua	-7.33231
).	-7.33294
tar	-7.3391
eira	-7.3404
F	-7.34566
▁po	-7.3535
ida	-7.35657
▁dia	-7.35726
U	-7.36671
ha	-7.37269
tura	-7.37538
▁Fo	-7.37663
▁U	-7.38009
bi	-7.38146
▁v	-7.38257
▁im	-7.38382
tica	-7.38415
▁per	-7.38757
▁sa	-7.38836
▁Na	-7.4041
▁Se	-7.40807
•	-7.41199
▁18	-7.42137
▁h	-7.42144
▁Com	-7.42857
ge	-7.44042
▁era	-7.44192
'	-7.4566
ês	-7.46782
".	-7.47636
nti	-7.47833
por	-7.48048
lha	-7.48193
▁est	-7.48335
▁Di	-7.49587
ven	-7.49971
▁(2000)	-7.50195
▁forma	-7.50781
â	-7.52574
Y	-7.52575
▁Brasil	-7.52575
▁muito	-7.52576
▁km	-7.52706
q	-7.52872
ix	-7.52893
▁su	-7.52972
▁Ver	-7.53116
▁Li	-7.54113
ço	-7.5522
▁Me	-7.56931
▁cidade	-7.58012
lmente	-7.59228
ing	-7.59562
▁man	-7.5972
▁sobre	-7.6008
▁Qu	-7.60094
▁Jo	-7.61368
cha	-7.61746
▁al	-7.61905
▁cont	-7.62359
▁nome	-7.62431
men	-7.62549
;	-7.62709
▁Liga	-7.62914
▁esp	-7.66715
▁n	-7.67391
▁In	-7.6798
▁externas	-7.6819
▁Po	-7.68514
eiro	-7.68767
the	-7.69182
▁sub	-7.71881
▁são	-7.72426
bra	-7.72572
até	-7.72587
éri	-7.72881
pois	-7.72891
▁Ro	-7.73365
▁ver	-7.73957
ões	-7.74021
▁Ba	-7.7498
▁Da	-7.75117
H	-7.75648
▁4	-7.77182
▁Con	-7.77451
ém	-7.78667
▁mor	-7.7897
10	-7.79075
ional	-7.79318
vid	-7.79404
▁Ele	-7.79434
bri	-7.79452
form	-7.79634
▁cri	-7.79648
▁Mo	-7.79805
▁Rio	-7.80254
tivo	-7.81064
▁17	-7.83828
▁6	-7.84801
tiva	-7.86109
▁qual	-7.86109
dores	-7.86283
▁http	-7.86702
ança	-7.86702
://	-7.86703
▁pra	-7.87242
▁Fa	-7.87244
ko	-7.87668
▁–	-7.88052
vam	-7.8813
inho	-7.88147
▁Ja	-7.89822
ografia	-7.90121
▁só	-7.91366
este	-7.91494
dade	-7.92284
▁passa	-7.92752
▁par	-7.92968
▁'	-7.93618
▁primeiro	-7.93722
▁pessoa	-7.93722
▁país	-7.93727
elho	-7.9486
ário	-7.96861
▁poss	-7.9745
00	-7.97666
▁está	-7.97777
▁car	-7.99394
cada	-7.99593
onde	-8.00664
K	-8.00737
▁dura	-8.01401
▁diz	-8.02376
11	-8.02714
▁todo	-8.03174
▁Por	-8.04794
J	-8.04987
▁Vi	-8.05172
▁outros	-8.05273
▁principa	-8.05274
▁Nobel	-8.05276
▁área	-8.05277
▁banda	-8.05278
▁mesmo	-8.05307
orte	-8.05408
▁:)	-8.05421
▁anos	-8.05934
▁É	-8.06326
▁inter	-8.0635
▁compr	-8.06905
...	-8.06999
com	-8.07408
▁Um	-8.07615
▁sem	-8.08252
▁Ga	-8.08497
▁12	-8.08675
▁publica	-8.09439
embro	-8.09455
▁Le	-8.09684
▁algu	-8.09862
▁bem	-8.10265
20	-8.10635
▁casa	-8.10802
%	-8.13787
X	-8.13787
▁outra	-8.13815
grama	-8.13958
ismo	-8.15265
▁gr	-8.15749
Z	-8.18332
ologia	-8.18343
▁final	-8.18355
▁Estado	-8.18368
tanto	-8.18601
▁can	-8.19104
▁vai	-8.19176
▁contra	-8.19563
ç	-8.1981
▁gen	-8.22531
ível	-8.23116
▁ainda	-8.2317
(	-8.23609
bert	-8.23775
▁parte	-8.23828
lidade	-8.24282
ã	-8.25996
ard	-8.26892
▁mar	-8.27453
▁faz	-8.2778
▁(19	-8.28084
▁Laranjeiras	-8.28094
▁primeira	-8.28094
▁trabalho	-8.28094
▁utiliza	-8.28094
_	-8.28094
▁vídeo	-8.28094
▁Paulo	-8.28121
▁vez	-8.28191
lação	-8.28639
▁num	-8.28714
▁Pro	-8.29973
▁prov	-8.30128
ord	-8.32843
▁grupo	-8.3336
▁chama	-8.33409
▁seguinte	-8.33471
▁14	-8.34114
▁13	-8.34264
▁tempo	-8.34823
feira	-8.35088
agens	-8.35838
americano	-8.38913
▁população	-8.38913
▁últim	-8.38913
▁distrito	-8.38913
▁junho	-8.38914
▁então	-8.38973
ilitar	-8.39011
leg	-8.39154
▁filh	-8.39292
▁fazer	-8.3933
▁atra	-8.3961
▁21	-8.40087
ntro	-8.40341
▁fica	-8.40383
▁localizad	-8.44436
agem	-8.44569
?	-8.44795
▁história	-8.44795
▁Comitê	-8.44795
▁artigo	-8.44796
curso	-8.44798
UTC	-8.44798
▁cobert	-8.44826
▁tinha	-8.44838
ssoci	-8.44988
▁norte	-8.45153
oje	-8.45168
The	-8.45209
▁Uni	-8.45218
xic	-8.45279
▁parti	-8.45386
▁fala	-8.45513
▁deixa	-8.45613
▁meno	-8.46718
▁mod	-8.50954
ES	-8.50977
▁(200	-8.50987
▁sid	-8.50992
▁Exército	-8.51045
▁Federal	-8.51045
▁informações	-8.51045
▁2013	-8.51047
▁2012	-8.51047
▁grande	-8.51049
▁José	-8.5107
▁ponto	-8.51074
▁Segund	-8.51094
▁melhor	-8.51104
quanto	-8.51135
angei	-8.51197
▁tudo	-8.51217
▁lança	-8.51288
▁hora	-8.51307
ínci	-8.51393
▁nun	-8.51874
shi	-8.52066
W	-8.5319
iano	-8.54347
▁cria	-8.55297
▁bat	-8.55953
gente	-8.56944
=	-8.57712
▁Arthur	-8.57712
▁conhecido	-8.57712
▁divulg	-8.57712
▁encontra	-8.57712
▁família	-8.57712
▁hirundinaria	-8.57712
▁número	-8.57712
▁professor	-8.57712
▁atletas	-8.57712
▁governo	-8.57712
▁organiza	-8.57712
▁blog	-8.57722
▁particip	-8.57723
ório	-8.57725
▁joga	-8.57734
ável	-8.57752
▁(201	-8.57761
▁2000	-8.57857
▁Chi	-8.58095
▁vizi	-8.58522
▁antes	-8.58698
▁auto	-8.59332
▁atua	-8.5988
funda	-8.60375
Arm	-8.63343
▁público	-8.64854
presidente	-8.64855
▁representa	-8.64855
▁consegui	-8.64855
▁Rhine	-8.64855
espécie	-8.64855
▁livro	-8.64855
▁Janeiro	-8.64856
▁acordo	-8.64859
▁setembro	-8.6486
▁médi	-8.64862
▁Santo	-8.649
▁seja	-8.64905
▁março	-8.64938
▁debate	-8.64944
▁2011	-8.65005
▁leva	-8.65038
▁pedi	-8.65044
hança	-8.65839
▁Nã	-8.72006
#	-8.72547
▁Igreja	-8.72547
▁World	-8.72547
▁candidato	-8.72547
▁escrit	-8.72547
utubro	-8.72548
▁2009	-8.7255
▁autoridade	-8.7255
▁junto	-8.72554
▁jogo	-8.72569
▁coisa	-8.72571
▁local	-8.72573
▁semana	-8.72608
▁minha	-8.72609
▁base	-8.72681
▁Norte	-8.72816
visão	-8.73042
stão	-8.73562
posto	-8.74129
▁nest	-8.76041
saur	-8.77753
/200	-8.80274
amenta	-8.80418
▁Portugal	-8.8088
▁:(((	-8.8088
▁Academia	-8.8088
▁Institut	-8.8088
▁Prêmio	-8.8088
▁Whitley	-8.8088
▁funciona	-8.8088
▁música	-8.8088
▁satélite	-8.8088
▁descobert	-8.80881
▁você	-8.80882
▁2008	-8.80883
ólogo	-8.80885
▁segundo	-8.80888
▁grava	-8.80892
onomia	-8.80899
▁Carlo	-8.80927
▁estudo	-8.81004
▁Unidos	-8.81088
terior	-8.81199
▁100	-8.8152
▁pap	-8.83691
eleção	-8.84768
▁tend	-8.89352
▁confi	-8.89387
$	-8.89971
▁Bibliografia	-8.89971
▁Lauren	-8.89971
▁Maggie	-8.89971
▁Wrexham	-8.89971
▁afirmou	-8.89971
▁milhões	-8.89971
▁movimento	-8.89971
▁Europa	-8.89971
▁segunda	-8.89971
ministro	-8.89972
▁especial	-8.89972
▁lugar	-8.89972
▁janeiro	-8.89972
comandante	-8.89973
cionário	-8.89973
▁Distrit	-8.89975
▁espaço	-8.89976
▁volta	-8.89978
posição	-8.8999
baixo	-8.89993
▁cerca	-8.90006
▁assim	-8.90017
▁Home	-8.90029
▁quarta	-8.90034
burg	-8.90097
▁mesma	-8.90149
▁Bom	-8.90201
Anik	-8.90256
vés	-8.9032
firma	-8.90679
▁vári	-8.91486
mont	-8.96988
estre	-8.97276
▁segui	-8.99909
ambém	-8.99926
século	-8.99971
▁Charlotte	-8.99971
▁Chartres	-8.99971
▁Pinheiro	-8.99971
▁exemplo	-8.99971
▁fevereiro	-8.99971
▁política	-8.99971
▁resultado	-8.99971
▁serviço	-8.99971
▁título	-8.99971
▁jornal	-8.99971
▁Bernard	-8.99971
▁Pedro	-8.99971
▁clientes	-8.99971
▁guerra	-8.99972
▁2014	-8.99974
▁single	-8.99974
▁2007	-8.99974
▁2006	-8.99974
▁realiza	-8.99975
▁água	-8.99975
▁Jorge	-8.99977
▁Silva	-8.99979
▁censo	-8.9998
▁irmã	-8.99981
▁função	-8.99981
▁nacional	-8.99981
▁região	-8.99985
▁Lux	-8.99999
▁orig	-9.00001
▁estuda	-9.00005
▁abril	-9.00023
▁falta	-9.00042
▁acima	-9.0008
▁isso	-9.00129
tualmente	-9.00959
▁pouc	-9.02794
–	-9.06541
▁Ant	-9.08047
/199	-9.09021
Q	-9.1101
conhecida	-9.11082
daveaui	-9.11082
discussão	-9.11082
zurrir	-9.11082
▁Fegeu	-9.11082
▁História	-9.11082
▁brasileiro	-9.11082
▁portuguesa	-9.11082
português	-9.11082
▁bairro	-9.11082
▁década	-9.11082
ü	-9.11082
▁minutos	-9.11082
▁acredit	-9.11082
▁havia	-9.11082
▁transmi	-9.11082
difíci	-9.11083
▁entrada	-9.11085
▁Madeira	-9.11085
▁2016	-9.11085
▁princ	-9.11085
▁EUA	-9.11087
▁1994	-9.11087
▁coloca	-9.11089
▁campo	-9.11092
▁feita	-9.11093
▁Villa	-9.11097
▁junta	-9.11098
▁antigo	-9.11099
▁(18	-9.11101
▁territ	-9.11102
▁cinco	-9.1111
▁super	-9.11119
nuncia	-9.1112
necess	-9.11124
▁pensa	-9.11124
▁formul	-9.11158
▁direto	-9.11195
ncy	-9.11317
▁Che	-9.11547
▁ganh	-9.1167
▁Grand	-9.11782
▁localiza	-9.11804
▁List	-9.16494
▁investiga	-9.23582
▁técnic	-9.23582
/21/199	-9.23582
ampeonato	-9.23582
▁Amerigo	-9.23582
▁António	-9.23582
▁Biodiversi	-9.23582
▁Justiça	-9.23582
▁Universidade	-9.23582
▁Wagner	-9.23582
▁categoria	-9.23582
▁conhecimento	-9.23582
▁mulher	-9.23582
Ç	-9.23582
▁Miguel	-9.23582
▁classifi	-9.23582
▁referência	-9.23582
▁situação	-9.23582
▁muitas	-9.23582
▁reunião	-9.23583
partamento	-9.23583
▁informação	-9.23583
▁Plant	-9.23584
▁chega	-9.23584
▁Fernand	-9.23584
▁homem	-9.23584
▁planta	-9.23584
▁Sacara	-9.23585
▁texto	-9.23585
Veja	-9.23586
▁loja	-9.23586
▁precisa	-9.23587
▁ocorre	-9.23587
▁filme	-9.23588
▁personage	-9.23588
▁carreira	-9.23588
▁diferen	-9.23589
▁sempre	-9.2359
▁feito	-9.23596
▁mostra	-9.23597
▁saída	-9.23597
▁Edw	-9.23598
▁houve	-9.23602
▁Flora	-9.23603
Escola	-9.23622
▁transp	-9.23629
▁tenta	-9.23641
▁valor	-9.23654
▁Glob	-9.23673
defini	-9.23859
stádio	-9.24445
ivamente	-9.25233
188	-9.33696
õ	-9.3759
“	-9.37868
Ã	-9.37868
statística	-9.37868
▁Históric	-9.37868
▁Manchester	-9.37868
▁Palmeiras	-9.37868
▁Paraolimpíada	-9.37868
▁Secretariado	-9.37868
▁chegou	-9.37868
▁desculpas	-9.37868
▁fronteira	-9.37868
▁musical	-9.37868
▁nenhum	-9.37868
▁pallidana	-9.37868
▁problemas	-9.37868
▁segurança	-9.37868
paddle	-9.37868
▁Alemanha	-9.37868
▁Brunswick	-9.37868
▁simples	-9.37868
▁transfer	-9.37868
turnê	-9.37868
ò	-9.37868
▁Hungria	-9.37868
▁apresenta	-9.37868
▁atividade	-9.37868
▁conteúdo	-9.37868
▁sábado	-9.37868
▁Battle	-9.37868
▁Creek	-9.37868
▁escreve	-9.37868
▁sangue	-9.37868
▁educação	-9.37868
▁acontece	-9.37868
▁express	-9.37868
▁Angola	-9.37869
▁Ribeir	-9.37869
▁Entre	-9.37869
▁encontro	-9.37869
▁exclu	-9.3787
▁inclu	-9.37871
deputado	-9.37873
▁medidas	-9.37873
Marinha	-9.37873
jetivo	-9.37875
proxim	-9.37879
▁limit	-9.37907
líder	-9.37934
Geografia	-9.37998
▁terceir	-9.38066
sign	-9.38595
▁2002	-9.43072
É	-9.49981
Happy	-9.54535
Mooresville	-9.54535
Wolfenbüttel	-9.54535
Yanceyville	-9.54535
considerado	-9.54535
limpíada	-9.54535
próprio	-9.54535
°	-9.54535
ñ	-9.54535
π	-9.54535
”	-9.54535
−	-9.54535
▁Colônia	-9.54535
▁Corinthians	-9.54535
▁Câmara	-9.54535
▁Djokovic	-9.54535
▁Düsseldorf	-9.54535
▁Guilherm	-9.54535
▁Henrique	-9.54535
▁México	-9.54535
▁Wright	-9.54535
▁campanha	-9.54535
▁complexo	-9.54535
▁dinheiro	-9.54535
▁disciplina	-9.54535
▁francesa	-9.54535
▁governador	-9.54535
▁historiador	-9.54535
▁objeto	-9.54535
▁pesquisa	-9.54535
▁próximo	-9.54535
▁romance	-9.54535
▁significa	-9.54535
▁sociedade	-9.54535
▁torneio	-9.54535
▁Canadá	-9.54535
▁Primeira	-9.54535
▁crítica	-9.54535
▁explica	-9.54535
▁prefeito	-9.54535
steroide	-9.54535
▁humano	-9.54535
▁período	-9.54535
▁pertence	-9.54535
▁única	-9.54535
nacionais	-9.54535
sequência	-9.54535
▁Guarda	-9.54535
▁sugeri	-9.54535
conjunto	-9.54535
ribunal	-9.54535
▁Grupo	-9.54535
▁Guerra	-9.54535
▁fornecer	-9.54537
▁Social	-9.54537
▁petista	-9.54537
▁envolv	-9.54537
▁russo	-9.54539
▁prátic	-9.54541
▁Museu	-9.54543
CBG	-9.54561
▁pequen	-9.54564
▁Traduç	-9.5459
experi	-9.54593
▁Smith	-9.54598
▁chef	-9.54622
quadra	-9.54771
▁alemã	-9.54812
1998	-9.58
2002)	-9.69128
&	-9.74534
о	-9.74534
Í	-9.74534
▁(4/2	-9.74534
▁Deputado	-9.74534
▁Guanhães	-9.74534
▁instituiç	-9.74534
▁reconhec	-9.74534
Heliocanthus	-9.74535
Organizaç	-9.74535
]	-9.74535
americana	-9.74535
egócios	-9.74535
ntidoping	-9.74535
▁Aragón	-9.74535
▁Brasília	-9.74535
▁Cruzeiro	-9.74535
▁Francisco	-9.74535
▁Futebol	-9.74535
▁Liverpool	-9.74535
▁Medicina	-9.74535
▁QUE	-9.74535
▁Rioarribasuchus	-9.74535
▁Rússia	-9.74535
▁assaltante	-9.74535
▁circula	-9.74535
▁companheiro	-9.74535
▁compartilha	-9.74535
▁cremoso	-9.74535
▁dificuldade	-9.74535
▁freguesia	-9.74535
î	-9.99535
е	-9.99535
Ó	-9.99535
ā	-9.99535
ù	-10.3287
+	-10.3287
р	-10.3287
💞	-10.3287
~	-10.3287
ˈ	-10.3287
£	-10.8287
č	-10.8287
š	-10.8287
ǐ	-10.8287
ǔ	-10.8287
С	-11.8277
́	-11.8278
ä	-11.8279
ö	-11.828
À	-11.8281
[	-11.8282
—	-11.8283
Á	-11.8284
ô	-11.8285
@	-11.8286
à	-11.8287
ø	-11.8287
