<unk>	0
<s>	0
</s>	0
foo	0
bar	0
s	-2.74374
▁	-3.08728
,	-3.70292
▁de	-3.71982
u	-3.84006
r	-3.8793
.	-3.92465
a	-3.99525
▁a	-4.00204
i	-4.10118
o	-4.12809
▁e	-4.32126
▁o	-4.50427
l	-4.52304
t	-4.56026
▁do	-4.67398
e	-4.67866
m	-4.75509
n	-4.81187
ra	-4.91834
do	-4.93756
▁da	-5.03746
▁que	-5.06831
to	-5.1136
re	-5.173
da	-5.17477
te	-5.21663
▁A	-5.23611
)	-5.2515
▁em	-5.26157
p	-5.26576
▁com	-5.30858
c	-5.32704
d	-5.34419
▁"	-5.35973
ta	-5.37534
la	-5.39169
-	-5.40523
▁(	-5.41328
▁no	-5.43932
"	-5.45758
▁se	-5.54773
le	-5.59347
▁na	-5.60337
ci	-5.6216
na	-5.62257
▁um	-5.67721
de	-5.68228
ri	-5.6823
▁E	-5.69576
▁uma	-5.70376
co	-5.72209
▁O	-5.72736
▁é	-5.7276
g	-5.74158
ro	-5.74694
ce	-5.78641
li	-5.81526
ar	-5.87248
al	-5.89508
▁S	-5.89689
▁para	-5.90699
ca	-5.90985
lo	-5.92206
▁re	-5.9223
f	-5.93074
A	-5.93481
z	-5.94428
b	-5.97049
er	-5.97796
í	-5.98878
ve	-5.9905
ção	-6.01365
ado	-6.02579
in	-6.02718
2	-6.04349
no	-6.06364
▁por	-6.06756
▁C	-6.07308
se	-6.0761
po	-6.07969
▁p	-6.08329
va	-6.0871
:	-6.10486
3	-6.10784
ão	-6.12396
ti	-6.12655
vi	-6.13843
▁P	-6.13949
sta	-6.13993
ga	-6.14602
on	-6.16057
y	-6.17812
▁in	-6.18364
é	-6.192
▁foi	-6.19763
ne	-6.20575
0	-6.20995
k	-6.21668
pa	-6.21976
ma	-6.22483
4	-6.22506
ó	-6.22699
di	-6.23634
en	-6.23672
6	-6.24033
▁ca	-6.24193
ria	-6.24351
▁c	-6.2561
á	-6.27468
h	-6.2802
9	-6.28284
1	-6.28732
▁não	-6.29905
7	-6.31931
ni	-6.32609
go	-6.32624
mi	-6.32639
▁B	-6.32896
S	-6.33355
me	-6.34389
▁f	-6.35653
I	-6.35869
pe	-6.37417
ou	-6.37806
8	-6.38086
5	-6.40472
x	-6.42213
E	-6.42241
mento	-6.42885
▁T	-6.43348
gu	-6.45674
gi	-6.47174
an	-6.47237
▁di	-6.47991
em	-6.48904
▁como	-6.50172
ndo	-6.50299
▁G	-6.50645
idade	-6.54905
O	-6.55842
ação	-6.57898
que	-6.58573
fe	-6.58765
▁me	-6.60294
▁ma	-6.61818
mo	-6.62881
▁-	-6.64171
mente	-6.64349
/	-6.64418
▁mais	-6.64513
▁M	-6.66011
nte	-6.66693
ada	-6.67321
ram	-6.6792
im	-6.68832
tra	-6.69043
▁F	-6.69757
▁D	-6.70617
M	-6.72701
vo	-6.73192
▁pelo	-6.74064
▁ex	-6.75767
w	-6.76082
",	-6.76172
ch	-6.7637
▁Pa	-6.76933
▁também	-6.7722
▁2	-6.77724
un	-6.78342
▁H	-6.79618
dia	-6.79666
N	-6.79866
nta	-6.80933
D	-6.8106
▁L	-6.81574
▁sua	-6.81999
▁I	-6.82018
ica	-6.83667
▁à	-6.84324
▁vi	-6.84693
ência	-6.85559
cia	-6.86935
R	-6.87342
v	-6.87859
bo	-6.88315
▁tem	-6.88773
cu	-6.89742
▁J	-6.91409
ita	-6.92683
▁pro	-6.92924
▁Ma	-6.92946
ê	-6.93303
▁Referências	-6.94655
▁ele	-6.94796
pi	-6.95225
C	-6.95264
P	-6.9576
ça	-6.95945
▁No	-6.96737
T	-6.97138
▁pa	-6.98698
▁R	-7.00019
sse	-7.0023
▁fa	-7.00507
▁ter	-7.01753
el	-7.01826
be	-7.02137
ente	-7.02351
▁W	-7.02613
ais	-7.03132
ú	-7.03171
ja	-7.0325
▁pre	-7.03433
▁Ca	-7.05679
▁so	-7.06484
ng	-7.06555
ba	-7.07783
ito	-7.08266
▁Em	-7.08674
bi	-7.09056
▁pode	-7.09342
▁Se	-7.10588
▁con	-7.10833
he	-7.11018
tro	-7.11339
▁3	-7.11476
nde	-7.1158
▁Re	-7.1223
▁1	-7.12334
ter	-7.12737
qui	-7.12948
▁ser	-7.13442
▁en	-7.13768
▁seu	-7.14461
▁habitantes	-7.15786
ver	-7.16106
B	-7.16495
ist	-7.17092
▁Co	-7.17344
▁esta	-7.17695
ções	-7.18199
ha	-7.18667
▁De	-7.18922
▁:(	-7.19208
tica	-7.19381
str	-7.19545
▁mas	-7.19566
▁ba	-7.19605
ho	-7.19777
▁U	-7.1993
▁pe	-7.19934
gen	-7.21405
ntes	-7.21573
L	-7.21949
ge	-7.22103
▁Li	-7.22466
K	-7.22525
▁19	-7.22612
▁cor	-7.23246
00	-7.23294
V	-7.23803
iz	-7.24901
eira	-7.2632
nd	-7.27395
▁20	-7.27742
ico	-7.28172
▁entre	-7.28329
hi	-7.2855
rá	-7.29563
nti	-7.30435
tura	-7.3069
por	-7.31155
tal	-7.31265
lha	-7.32093
▁ju	-7.32213
▁pela	-7.32825
F	-7.33773
min	-7.34275
nto	-7.34806
▁mo	-7.36683
lho	-7.36887
qu	-7.3708
▁Al	-7.37268
ber	-7.38658
▁18	-7.39053
rma	-7.39165
▁Me	-7.39738
▁Di	-7.40083
ista	-7.40157
per	-7.42318
▁cri	-7.42532
nho	-7.42592
U	-7.42616
ário	-7.42651
▁Com	-7.42864
'	-7.44919
tiva	-7.4681
G	-7.47299
cha	-7.49544
▁forma	-7.4966
ix	-7.49772
▁Na	-7.50414
fo	-7.5058
ança	-7.51391
▁Brasil	-7.51813
▁muito	-7.51888
▁km	-7.5195
▁Ver	-7.5209
ço	-7.52786
j	-7.53649
nda	-7.53709
▁est	-7.54282
ent	-7.57166
▁cidade	-7.57382
▁Bo	-7.57406
tivo	-7.57721
▁v	-7.58082
▁Ro	-7.58689
▁(2	-7.59174
10	-7.59284
▁sobre	-7.59319
▁Ba	-7.59638
dio	-7.60148
eiro	-7.60411
mos	-7.60772
ações	-7.60848
▁nome	-7.6102
ven	-7.61402
;	-7.61947
▁V	-7.62257
▁São	-7.63243
▁of	-7.64144
▁Ligações	-7.64651
ing	-7.65444
15	-7.65673
▁b	-7.6631
â	-7.67427
▁externas	-7.67428
▁Mo	-7.6746
ém	-7.68058
bra	-7.68096
H	-7.68758
ando	-7.68983
▁In	-7.69453
▁Sa	-7.70489
▁cons	-7.70714
nha	-7.71132
▁são	-7.71688
▁Con	-7.72388
!	-7.73123
▁ver	-7.7362
▁Te	-7.73657
▁esc	-7.74472
man	-7.7454
▁Fo	-7.74692
▁mor	-7.7497
20	-7.74974
fa	-7.75769
bri	-7.7708
▁4	-7.77927
lmente	-7.78061
com	-7.78445
▁mu	-7.79084
▁Rio	-7.79442
▁Ele	-7.79496
▁199	-7.79712
▁vo	-7.81199
ko	-7.8137
dores	-7.81776
▁Fa	-7.82765
▁está	-7.8287
▁17	-7.83018
▁Po	-7.83567
▁http	-7.85941
://	-7.85942
titu	-7.86079
▁N	-7.86211
▁–	-7.87291
▁5	-7.87607
ment	-7.88108
cul	-7.89478
▁até	-7.89501
▁seus	-7.90705
▁só	-7.90923
▁6	-7.9093
18	-7.91012
▁passa	-7.91163
▁Ja	-7.91188
▁for	-7.91252
ific	-7.92309
ry	-7.92318
▁Le	-7.92487
▁Vi	-7.92564
▁'	-7.92822
▁primeiro	-7.9296
▁pessoa	-7.92963
▁trans	-7.92969
▁foram	-7.92996
▁país	-7.93052
▁Ho	-7.9464
▁conf	-7.94958
▁Localidades	-7.9503
▁onde	-7.95961
jo	-7.96109
ões	-7.96661
ima	-7.97726
11	-7.98241
▁Ga	-7.9874
▁Ne	-7.99032
ária	-7.9905
publica	-8.0051
▁localiza	-8.00519
vam	-8.00557
▁To	-8.00878
▁diz	-8.01869
nia	-8.03121
▁Pe	-8.03253
▁Por	-8.03263
J	-8.0416
Y	-8.0429
▁três	-8.0451
▁área	-8.04513
▁Nobel	-8.04514
▁outros	-8.04516
▁mesmo	-8.04555
▁the	-8.04632
▁banda	-8.04663
▁:)	-8.04675
▁sub	-8.04679
▁anos	-8.05521
▁É	-8.05565
▁rec	-8.05914
▁inter	-8.06158
▁Localidade	-8.06308
▁bo	-8.06328
▁Um	-8.06912
▁poss	-8.0798
▁12	-8.08327
embro	-8.08723
▁bem	-8.09124
je	-8.09871
▁casa	-8.10862
ã	-8.11467
▁durante	-8.13025
%	-8.13025
X	-8.13025
lhe	-8.13477
ard	-8.14218
▁(2000).	-8.14835
tion	-8.15211
gre	-8.16807
ismo	-8.17077
Z	-8.1757
▁final	-8.17578
▁Não	-8.17924
▁vai	-8.18226
▁contra	-8.18734
tanto	-8.20495
▁cont	-8.21327
Q	-8.22167
▁(19	-8.22338
▁parti	-8.22347
▁qual	-8.22361
▁parte	-8.22394
▁ainda	-8.22507
(	-8.22839
q	-8.25136
▁(2000)	-8.25283
ck	-8.26095
ografia	-8.27303
_	-8.27332
▁Laranjeiras	-8.27332
▁primeira	-8.27332
▁utiliza	-8.27332
▁vídeo	-8.27332
▁Paulo	-8.27362
▁vez	-8.27452
▁num	-8.27474
▁fund	-8.27722
▁faz	-8.28039
▁trabalho	-8.28162
Co	-8.30074
▁Foi	-8.30313
inho	-8.31596
▁conta	-8.31749
▁principal	-8.32595
▁grupo	-8.32595
▁seguinte	-8.32596
▁já	-8.32614
▁depois	-8.32621
▁chama	-8.32638
▁todos	-8.32649
▁198	-8.33121
▁14	-8.33343
▁gra	-8.33375
▁13	-8.33436
▁conce	-8.33796
feira	-8.34051
▁tempo	-8.3452
americano	-8.38151
▁população	-8.38151
▁distrito	-8.38151
▁após	-8.38157
▁quando	-8.38157
▁então	-8.38183
▁junho	-8.38329
▁fazer	-8.38476
▁Ka	-8.3885
▁fica	-8.39098
▁21	-8.39198
▁Va	-8.39808
▁Fran	-8.39916
éri	-8.42381
?	-8.44033
▁história	-8.44033
▁Comitê	-8.44033
▁artigo	-8.44034
UTC	-8.44036
▁cobert	-8.44101
▁tinha	-8.44104
▁norte	-8.44275
▁maior	-8.44319
inha	-8.44358
You	-8.44361
▁deixa	-8.45176
xic	-8.47817
▁Exército	-8.50283
▁Federal	-8.50283
▁informações	-8.50283
▁José	-8.50284
▁2013	-8.50285
▁2012	-8.50285
▁outras	-8.50298
▁tudo	-8.50319
▁ponto	-8.50351
▁melhor	-8.50366
▁grande	-8.50387
▁hora	-8.50422
▁sido	-8.50453
angei	-8.50877
OR	-8.51025
▁refer	-8.51309
ity	-8.51324
▁este	-8.51327
ES	-8.51818
The	-8.51819
ord	-8.56267
▁Arthur	-8.5695
▁conhecido	-8.5695
▁encontra	-8.5695
▁hirundinaria	-8.5695
▁número	-8.5695
▁organiza	-8.5695
▁professor	-8.5695
▁atletas	-8.5695
▁família	-8.5695
▁governo	-8.5695
▁nunca	-8.56951
▁blog	-8.56958
▁joga	-8.56972
ável	-8.57012
▁pois	-8.5703
▁foto	-8.57129
▁atua	-8.57158
▁2000	-8.57233
▁Chi	-8.57987
▁auto	-8.58331
W	-8.59589
pul	-8.62707
▁grav	-8.63794
▁representa	-8.64093
▁consegui	-8.64093
▁público	-8.64093
▁último	-8.64093
presidente	-8.64093
▁livro	-8.64093
▁Rhine	-8.64094
▁Segundo	-8.64094
▁Janeiro	-8.64094
▁duas	-8.64096
▁acordo	-8.64098
▁setembro	-8.641
▁médi	-8.64102
▁março	-8.64102
▁debate	-8.64163
!!	-8.64221
▁menos	-8.64231
▁2011	-8.64241
▁ocorr	-8.64252
▁Santo	-8.64319
▁leva	-8.64323
scrito	-8.64576
▁espe	-8.66302
agem	-8.69497
ç	-8.70177
▁local	-8.7177
utubro	-8.71785
▁World	-8.71785
▁candidato	-8.71785
▁vizinhança	-8.71785
▁álbum	-8.71785
#	-8.71785
▁Igreja	-8.71785
▁produto	-8.71785
▁coisa	-8.71787
▁situa	-8.71788
▁autoridade	-8.71789
▁realiz	-8.7179
▁jogo	-8.71804
▁semana	-8.71826
▁Norte	-8.71853
▁minha	-8.71876
saur	-8.72847
Arm	-8.73512
▁mil	-8.75125
▁Fil	-8.76449
▁:(((	-8.80118
▁Academia	-8.80118
▁Portugal	-8.80118
▁Prêmio	-8.80118
▁Whitley	-8.80118
▁divulga	-8.80118
▁funciona	-8.80118
▁importante	-8.80118
▁música	-8.80118
▁satélite	-8.80118
▁Unidos	-8.80119
▁alunos	-8.80119
▁você	-8.8012
▁2008	-8.80121
▁qualquer	-8.80124
▁apenas	-8.80124
▁segundo	-8.80126
ólogo	-8.80126
▁hoje	-8.80126
ível	-8.8013
▁registr	-8.80131
▁algum	-8.80146
▁estudo	-8.80177
▁há	-8.80226
▁tendo	-8.80386
▁mult	-8.8047
▁pens	-8.81008
acional	-8.8919
$	-8.89209
▁Bibliografia	-8.89209
▁Lauren	-8.89209
▁Maggie	-8.89209
▁Wrexham	-8.89209
▁afirmou	-8.89209
▁município	-8.89209
▁janeiro	-8.89209
▁milhões	-8.89209
▁quarta	-8.89209
▁Europa	-8.8921
▁lugar	-8.8921
▁espaço	-8.8921
▁movimento	-8.89211
ministro	-8.89211
▁segunda	-8.89212
posição	-8.89215
▁especial	-8.89221
▁filho	-8.89224
▁cerca	-8.89229
▁volta	-8.89232
▁João	-8.89235
▁todas	-8.89284
▁tenha	-8.89294
▁assim	-8.89297
baixo	-8.89343
▁mesma	-8.89362
vés	-8.89464
▁...	-8.8947
▁Que	-8.89517
▁uso	-8.89922
aka	-8.94748
/200	-8.98685
▁jornal	-8.99209
▁Charlotte	-8.99209
▁Chartres	-8.99209
▁Militar	-8.99209
▁Pinheiro	-8.99209
▁espécie	-8.99209
▁exemplo	-8.99209
▁fevereiro	-8.99209
▁política	-8.99209
▁problema	-8.99209
▁resultado	-8.99209
▁título	-8.99209
▁Instituto	-8.99209
▁Jorge	-8.99209
▁clientes	-8.9921
▁Distrito	-8.9921
atividade	-8.9921
▁serviço	-8.9921
século	-8.9921
▁Silva	-8.9921
▁guerra	-8.99211
▁água	-8.99211
▁2014	-8.99212
▁2007	-8.99213
▁2006	-8.99213
▁Carlos	-8.99213
▁single	-8.99214
▁censo	-8.99214
▁Pedro	-8.99214
▁série	-8.99214
▁função	-8.99214
▁região	-8.99218
▁irmã	-8.99218
▁Qui	-8.99226
▁quais	-8.99231
▁isso	-8.99248
▁Day	-8.99249
▁nacional	-8.99249
▁fosse	-8.9926
▁estuda	-8.9927
▁falta	-8.99275
▁relação	-8.99278
▁abril	-8.99285
▁acima	-8.99368
missão	-8.99572
tualmente	-8.99909
–	-9.05777
▁Hollywood	-9.1032
daveaui	-9.1032
discussão	-9.1032
português	-9.1032
zurrir	-9.1032
▁História	-9.1032
▁Luxemburgo	-9.1032
▁Também	-9.1032
▁brasileiro	-9.1032
▁década	-9.1032
▁enquanto	-9.1032
▁portuguesa	-9.1032
▁comandante	-9.1032
▁Fegeu	-9.10321
▁acredit	-9.10321
▁minutos	-9.10321
▁alguns	-9.10321
▁bairro	-9.10321
▁havia	-9.10322
ráfico	-9.10322
▁coloca	-9.10322
▁Demografia	-9.10322
▁2016	-9.10323
▁Madeira	-9.10324
ância	-9.10324
▁EUA	-9.10326
▁entrada	-9.10329
▁formul	-9.10336
▁Villa	-9.10338
▁cinco	-9.10342
▁pouco	-9.10344
▁antigo	-9.10345
▁campo	-9.1036
▁nível	-9.10369
▁direto	-9.10376
▁feita	-9.10398
ncy	-9.10421
▁2009	-9.13172
ossui	-9.14852
Ç	-9.2282
▁António	-9.2282
▁Justiça	-9.2282
▁Miguel	-9.2282
▁United	-9.2282
▁Universidade	-9.2282
▁Wagner	-9.2282
▁categoria	-9.2282
▁conhecida	-9.2282
▁conhecimento	-9.2282
▁descoberto	-9.2282
▁informação	-9.2282
▁princesa	-9.2282
▁província	-9.2282
▁recursos	-9.2282
▁Amerigo	-9.2282
▁território	-9.22821
▁considera	-9.22821
▁reunião	-9.22821
▁filme	-9.22821
▁carreira	-9.22821
▁saída	-9.22821
▁homem	-9.22821
▁sempre	-9.22822
▁Plant	-9.22822
▁estimada	-9.22823
▁texto	-9.22823
▁2002	-9.22826
▁chega	-9.22827
▁houve	-9.22828
/21/199	-9.22828
▁precisa	-9.22828
▁Grande	-9.22831
▁Sacara	-9.22832
▁aprend	-9.22832
▁planta	-9.22836
▁Edw	-9.2284
▁diferen	-9.22844
▁mulher	-9.22867
Veja	-9.22888
▁valor	-9.22946
▁fonte	-9.23005
▁trabalh	-9.34661
▁futebol	-9.36062
õ	-9.37047
ü	-9.37106
límpico	-9.37106
statística	-9.37106
turnê	-9.37106
Ã	-9.37106
▁Alemanha	-9.37106
▁Brunswick	-9.37106
▁Iúçufe	-9.37106
▁Manchester	-9.37106
▁Palmeiras	-9.37106
▁Paraolimpíada	-9.37106
▁Secretariado	-9.37106
▁apresenta	-9.37106
▁associado	-9.37106
▁diagrama	-9.37106
▁educação	-9.37106
▁encontro	-9.37106
▁fronteira	-9.37106
▁nenhum	-9.37106
▁pallidana	-9.37106
▁pássaro	-9.37106
▁sangue	-9.37106
▁simples	-9.37106
▁sábado	-9.37106
▁Hungria	-9.37106
▁conteúdo	-9.37106
▁segurança	-9.37106
▁chegou	-9.37106
▁desculpas	-9.37106
ò	-9.37106
“	-9.37106
▁Battle	-9.37106
▁Creek	-9.37106
▁express	-9.37106
▁NGC	-9.37106
▁acontece	-9.37106
▁produção	-9.37106
▁início	-9.37107
▁musical	-9.37107
▁Ribeir	-9.37107
▁programa	-9.37107
▁anuncia	-9.37107
▁Angola	-9.37107
tório	-9.37107
▁medidas	-9.37107
paddle	-9.37108
▁quase	-9.37108
▁pertenc	-9.37108
deputado	-9.37109
▁participar	-9.37119
líder	-9.3714
Geografia	-9.37192
Marinha	-9.37194
É	-9.49215
2009)	-9.49532
▁administra	-9.53773
Wolfenbüttel	-9.53773
Yanceyville	-9.53773
limpíada	-9.53773
°	-9.53773
ñ	-9.53773
”	-9.53773
−	-9.53773
▁Bernardo	-9.53773
▁Biodiversity	-9.53773
▁Canadá	-9.53773
▁Catedral	-9.53773
▁Colégio	-9.53773
▁Colônia	-9.53773
▁Corinthians	-9.53773
▁Câmara	-9.53773
▁Djokovic	-9.53773
▁Düsseldorf	-9.53773
▁Guilherm	-9.53773
▁Henrique	-9.53773
▁Histórico	-9.53773
▁México	-9.53773
▁Wright	-9.53773
▁aproximadamente	-9.53773
▁campanha	-9.53773
▁científica	-9.53773
▁complexo	-9.53773
▁comunicação	-9.53773
▁dinheiro	-9.53773
▁disciplina	-9.53773
▁francesa	-9.53773
▁governador	-9.53773
▁historiador	-9.53773
▁humano	-9.53773
▁período	-9.53773
▁principais	-9.53773
▁próximo	-9.53773
▁significa	-9.53773
▁sociedade	-9.53773
▁torneio	-9.53773
▁Primeira	-9.53773
▁crítica	-9.53773
▁desenvolv	-9.53773
▁objeto	-9.53773
▁pesquisa	-9.53773
steroide	-9.53773
π	-9.53773
▁Quando	-9.53773
▁explica	-9.53773
▁substitui	-9.53773
▁Informa	-9.53773
▁John	-9.53773
▁romance	-9.53773
▁quatro	-9.53773
▁única	-9.53774
▁Guerra	-9.53774
▁Guarda	-9.53774
▁Loures	-9.53774
▁Social	-9.53774
▁russo	-9.53775
▁fornecer	-9.53784
▁permit	-9.53786
▁perfei	-9.53788
CBG	-9.53796
о	-9.73772
Í	-9.73772
&	-9.73773
Heliocanthus	-9.73773
Ranchettes	-9.73773
]	-9.73773
▁Aragón	-9.73773
▁Bombeiros	-9.73773
▁Brasília	-9.73773
▁Campeonato	-9.73773
▁Cruzeiro	-9.73773
▁Deputado	-9.73773
▁Economia	-9.73773
▁Edifício	-9.73773
▁Fernando	-9.73773
▁Futebol	-9.73773
▁Liverpool	-9.73773
▁Localiza	-9.73773
▁Medicina	-9.73773
▁QUE	-9.73773
▁Rioarribasuchus	-9.73773
▁Rússia	-9.73773
▁clássico	-9.73773
▁conjunto	-9.73773
▁dificuldade	-9.73773
▁freguesia	-9.73773
▁galáxia	-9.73773
▁hospital	-9.73773
▁impeachment	-9.73773
▁influencia	-9.73773
▁inquérito	-9.73773
▁multivalorada	-9.73773
▁parapsicologia	-9.73773
▁polvilho	-9.73773
▁profissional	-9.73773
▁príncipe	-9.73773
▁treinador	-9.73773
▁técnico	-9.73773
е	-9.98773
Ó	-9.98773
î	-9.98773
ā	-9.98773
р	-10.3211
~	-10.3211
💞	-10.3211
ù	-10.3211
+	-10.3211
ˈ	-10.3211
£	-10.8211
č	-10.8211
š	-10.8211
ǐ	-10.8211
ǔ	-10.8211
С	-11.8199
́	-11.82
ä	-11.8201
ö	-11.8202
À	-11.8203
[	-11.8204
—	-11.8205
Á	-11.8206
=	-11.8207
ô	-11.8208
•	-11.8209
@	-11.821
à	-11.8211
ø	-11.8211
